!
##0
##00
##01
##1
##10
##11
##12
##13
##14
##15
##16
##17
##18
##19
##2
##20
##21
##22
##23
##24
##25
##26
##27
##28
##29
##3
##30
##31
##32
##33
##34
##35
##36
##37
##38
##39
##4
##40
##41
##42
##43
##44
##45
##46
##47
##48
##5
##50
##51
##53
##55
##6
##60
##64
##65
##7
##70
##75
##8
##80
##86
##9
##90
##a
##aal
##ab
##abad
##abe
##ac
##ach
##ae
##ael
##af
##ah
##ahan
##ail
##ails
##aki
##al
##ale
##all
##alo
##ama
##ame
##amel
##and
##ane
##ang
##ani
##apa
##ar
##ard
##ary
##as
##ase
##asi
##ates
##ather
##aton
##au
##aul
##ay
##aya
##b
##ba
##bara
##be
##bell
##bent
##ber
##bet
##bin
##bine
##bla
##block
##boo
##bor
##bourg
##brand
##bre
##brecht
##bres
##bro
##bur
##burn
##by
##c
##cal
##cale
##cam
##cano
##cans
##car
##cate
##cc
##cca
##ce
##ch
##cha
##chard
##chel
##cher
##cho
##ci
##cian
##cio
##cis
##ck
##cks
##co
##cor
##course
##cript
##cs
##cue
##cy
##d
##da
##dad
##dal
##dan
##dd
##den
##di
##die
##dine
##ding
##don
##dre
##dson
##du
##dy
##e
##eal
##ean
##ec
##eed
##ees
##ef
##eh
##ele
##elin
##elly
##em
##en
##ena
##enne
##eo
##er
##eral
##ere
##erick
##ern
##erne
##erry
##ers
##ert
##ery
##es
##est
##et
##eva
##ew
##ey
##ez
##f
##fa
##ff
##ffer
##fra
##fred
##frey
##fried
##ful
##g
##ga
##gam
##gar
##gard
##ge
##gee
##ger
##ges
##get
##gger
##gi
##gin
##gle
##gne
##gno
##go
##gor
##gra
##gu
##gun
##gus
##ham
##han
##hani
##har
##he
##heat
##hein
##hel
##hem
##her
##hill
##hip
##hir
##hit
##hl
##hn
##hol
##holm
##hom
##hon
##hr
##hu
##hy
##i
##ia
##iac
##iah
##iam
##ian
##ias
##ica
##ices
##ick
##ie
##ieri
##ies
##ig
##igh
##igi
##il
##ile
##im
##imo
##in
##ina
##ind
##inda
##ing
##inn
##ins
##ire
##iro
##irs
##is
##isa
##isco
##ise
##isse
##it
##iva
##iz
##iza
##ja
##jan
##je
##jo
##jon
##ju
##k
##ka
##ken
##ker
##kes
##kla
##ko
##kra
##l
##lad
##lag
##lal
##late
##latt
##lay
##lbert
##ld
##lea
##lee
##leen
##len
##lette
##lew
##ley
##lf
##li
##lie
##lit
##ll
##lla
##llen
##llis
##lls
##lma
##log
##look
##lore
##los
##lou
##low
##loy
##lson
##lter
##lve
##lvin
##ly
##lyn
##m
##man
##mann
##mark
##mbre
##mer
##mett
##mi
##mill
##min
##mith
##mon
##mona
##mond
##mont
##moor
##mos
##mot
##mp
##mund
##my
##n
##na
##nac
##name
##nas
##nc
##nd
##nda
##ndi
##ne
##ned
##ner
##nes
##nh
##nic
##nie
##nife
##nis
##nn
##nna
##nne
##nny
##no
##nor
##ns
##nson
##ny
##o
##oa
##oan
##ob
##oc
##od
##oda
##ode
##oh
##ok
##ol
##ola
##oll
##oma
##oman
##ome
##on
##onal
##ond
##oon
##oper
##or
##oral
##ord
##orm
##os
##ose
##osh
##ott
##ox
##oy
##p
##pa
##pe
##per
##pers
##ph
##pher
##pi
##pin
##pore
##pot
##qua
##quez
##qui
##r
##ra
##rah
##raj
##ram
##ran
##rea
##red
##ren
##rene
##rer
##rera
##res
##rga
##rger
##ria
##rian
##rians
##ric
##rick
##rie
##riel
##ries
##rig
##rina
##ris
##rist
##risto
##rita
##rk
##rl
##rley
##rno
##rns
##ro
##robe
##rom
##ron
##rona
##roon
##rose
##row
##rr
##rrell
##rri
##rry
##rs
##rt
##rts
##rus
##ryn
##ryo
##s
##sal
##san
##sch
##sea
##see
##sher
##shi
##ship
##si
##sla
##sler
##sm
##smith
##so
##son
##st
##sta
##ste
##sto
##su
##t
##ta
##tal
##tar
##te
##ten
##ter
##th
##thy
##ti
##tine
##tle
##to
##ton
##tor
##tos
##tric
##tt
##tte
##tted
##tton
##ty
##uan
##uc
##ughter
##ui
##uke
##ul
##uli
##ull
##ump
##ums
##un
##ura
##ure
##uro
##urt
##us
##user
##ut
##va
##van
##ve
##vel
##ven
##vern
##ves
##via
##vid
##vin
##vio
##vis
##w
##wa
##wal
##walk
##wan
##ward
##ware
##wayne
##we
##well
##wer
##wi
##wig
##will
##win
##wing
##wise
##wl
##wn
##woods
##wyn
##x
##y
##yam
##yd
##ye
##yl
##yle
##ym
##yn
##yt
##z
##za
##zan
##zie
%
&
'
(
)
*
-
.
/
0
1
100
1000
101
102
103
104
105
106
107
108
109
110
1100
111
112
113
114
115
116
117
118
119
120
1200
121
122
123
124
125
126
127
128
129
130
1300
131
132
133
134
135
136
137
138
139
140
1400
141
142
143
144
145
146
147
148
149
150
1500
151
152
153
154
155
156
157
158
159
160
1600
161
162
1620
163
164
1640
1642
1644
1648
165
1650
166
1660
1661
167
168
1680
1688
1689
169
1690
170
1700
171
1710
1715
172
1720
173
1730
174
1740
1745
1746
1747
1748
1749
1750
1751
1752
1753
1754
1755
1756
1757
1758
1759
1760
1761
1762
1763
1764
1765
1766
1767
1768
1769
1770
1771
1772
1773
1774
1775
1776
1777
1778
1779
1780
1781
1782
1783
1784
1785
1786
1787
1788
1789
1790
1791
1792
1793
1794
1795
1796
1797
1798
1799
1800
1801
1802
1803
1804
1805
1806
1807
1808
1809
1810
1811
1812
1813
1814
1815
1816
1817
1818
1819
1820
1821
1822
1823
1824
1825
1826
1827
1828
1829
1830
1831
1832
1833
1834
1835
1836
1837
1838
1839
1840
1841
1842
1843
1844
1845
1846
1847
1848
1849
1850
1851
1852
1853
1854
1855
1856
1857
1858
1859
1860
1861
1862
1863
1864
1865
1866
1867
1868
1869
1870
1871
1872
1873
1874
1875
1876
1877
1878
1879
1880
1881
1882
1883
1884
1885
1886
1887
1888
1889
1890
1891
1892
1893
1894
1895
1896
1897
1898
1899
1900
1901
1902
1903
1904
1905
1906
1907
1908
1909
1910
1911
1912
1913
1914
1915
1916
1917
1918
1919
1920
1921
1922
1923
1924
1925
1926
1927
1928
1929
1930
1931
1932
1933
1934
1935
1936
1937
1938
1939
1940
1941
1942
1943
1944
1945
1946
1947
1948
1949
1950
1951
1952
1953
1954
1955
1956
1957
1958
1959
1960
1961
1962
1963
1964
1965
1966
1967
1968
1970
1971
1972
1973
1974
1975
1976
1977
1978
1979
1980
1981
1982
1983
1984
1985
1986
1987
1988
1989
1990
1991
1992
1993
1994
1995
1996
1997
1998
1999
20
2000
2001
2002
2003
2004
2005
2006
2007
2008
2009
2010
2011
2012
2013
2014
2015
2016
2017
2018
2019
202
2020
203
204
205
206
207
208
209
210
211
212
213
214
215
216
217
218
219
220
221
222
223
224
225
226
227
228
229
230
231
232
233
234
235
236
237
238
239
240
241
242
243
244
245
246
247
248
249
25
250
251
252
253
254
255
256
257
258
26
260
261
262
264
265
27
270
272
275
278
28
280
281
285
286
287
288
29
290
295
3
30
300
3000
301
302
303
304
305
306
307
308
31
310
311
312
313
315
316
32
320
321
322
325
33
330
333
335
34
340
345
35
350
36
360
365
37
370
375
38
380
385
39
390
395
40
400
4000
401
404
405
41
410
415
42
420
425
43
430
435
44
440
45
450
46
460
47
470
48
480
49
490
50
500
5000
501
51
510
512
52
520
53
530
54
540
55
550
56
560
57
570
58
580
59
60
600
61
610
62
620
625
63
630
64
640
65
650
66
660
67
68
680
69
7
70
700
71
72
720
73
737
74
75
750
76
760
77
78
79
80
800
802
81
82
83
84
85
850
86
87
88
89
90
900
91
911
92
93
94
95
950
96
97
978
98
99
:
;
=
?
[NAME]
_
a
about
ad
all
an
and
au
b
bar
bookstore
br
brand
built
c
ca
car
categories
ch
check
co
country
da
de
den
details
download
employee
est
etc
exists
f
flashed
forgot
g
get
global
grants
greet
h
ha
haze
he
hug
i
id
import
in
is
j
jam
k
ka
l
le
lo
log
m
ma
marks
messages
mi
mild
mon
na
name
new
ni
number
o
orders
p
pass
password
post
print
r
ran
random
re
region
robe
rub
running
s
sa
sand
script
select
she
ship
states
static
step
su
system
t
th
ton
user
v
via
virgin
wa
windows
