!
##0
##00
##01
##1
##10
##100
##11
##12
##13
##14
##15
##16
##17
##18
##19
##2
##20
##21
##22
##23
##24
##25
##26
##27
##28
##29
##3
##30
##31
##32
##33
##34
##35
##36
##37
##38
##39
##4
##40
##41
##42
##43
##44
##45
##46
##47
##48
##49
##5
##50
##51
##52
##53
##54
##55
##56
##57
##58
##59
##6
##60
##64
##65
##66
##7
##70
##75
##8
##80
##85
##86
##9
##90
##ac
##ache
##aco
##aer
##agger
##ago
##ai
##ale
##alle
##am
##ame
##an
##and
##ander
##andra
##ant
##ao
##ar
##ard
##are
##aris
##arm
##art
##as
##asi
##ast
##ate
##ath
##att
##aya
##b
##ba
##bai
##bal
##ball
##bar
##bel
##bell
##ben
##berry
##bert
##bet
##bie
##bill
##bin
##bla
##bo
##bor
##bra
##bre
##bro
##brook
##burn
##by
##c
##ca
##cal
##camp
##can
##car
##cate
##ce
##ced
##ch
##cha
##cher
##chfield
##christ
##cht
##cia
##ck
##cker
##co
##col
##coll
##cr
##cript
##cs
##cted
##cu
##d
##dal
##dam
##dar
##dd
##de
##den
##der
##dhi
##di
##dic
##ding
##dley
##do
##don
##dre
##dson
##dun
##e
##eal
##ear
##eb
##ed
##ee
##ees
##em
##en
##end
##entes
##er
##ers
##ert
##ery
##es
##ew
##fer
##ff
##field
##fo
##fr
##ft
##fu
##g
##gar
##ge
##gee
##ger
##gers
##get
##gh
##gil
##gni
##gno
##gor
##gr
##grove
##gu
##gue
##gus
##h
##han
##hay
##hea
##hell
##helm
##hen
##her
##hil
##hip
##hn
##hoe
##holder
##hom
##hon
##hony
##hopper
##how
##hu
##i
##ic
##ide
##ier
##ies
##iff
##illo
##in
##iner
##ins
##it
##ita
##ive
##ja
##jack
##jan
##je
##jean
##jo
##ke
##kell
##ker
##kes
##ki
##king
##ko
##kra
##ks
##l
##la
##lam
##lar
##lard
##lash
##lb
##ld
##lee
##lene
##ler
##ley
##li
##lia
##lim
##lli
##lo
##log
##lore
##ls
##lund
##ly
##lyn
##ma
##mad
##main
##man
##mans
##mar
##mart
##mc
##mes
##met
##mi
##mie
##min
##mo
##mon
##mos
##ms
##mur
##n
##name
##nder
##ne
##nea
##nel
##nett
##ney
##ng
##ni
##nie
##nik
##nko
##nor
##not
##ns
##nte
##ny
##o
##oa
##oat
##ob
##od
##oki
##ola
##oli
##om
##omp
##on
##onia
##ont
##op
##or
##ora
##ord
##ott
##ova
##owe
##oy
##pa
##pate
##pe
##pers
##pet
##phi
##pic
##pin
##pl
##pm
##point
##pol
##pop
##pp
##pper
##pping
##pr
##ps
##quist
##r
##rad
##rain
##ram
##ras
##ray
##re
##rea
##red
##ren
##ret
##rew
##rey
##rh
##ri
##ric
##rich
##rie
##rien
##rigue
##rin
##rio
##ris
##rix
##rley
##ro
##rod
##roll
##rong
##ror
##row
##roy
##rr
##rre
##rri
##rti
##run
##ry
##ryl
##s
##sal
##sar
##sen
##sha
##si
##ski
##smith
##so
##son
##ssler
##st
##ste
##t
##ta
##th
##to
##ton
##town
##tr
##tra
##tt
##tte
##ttle
##tu
##turn
##tz
##uj
##us
##user
##ut
##ve
##ven
##ver
##vere
##vi
##vin
##w
##war
##ward
##water
##wd
##we
##well
##wen
##wil
##win
##wl
##wn
##wood
##ws
##wski
##wy
##xa
##xon
##y
##yard
##yat
##yl
##yles
##yon
##you
##z
##zam
##zel
##zen
##zman
%
&
'
(
)
*
-
.
/
0
1
100
1000
101
1016
102
103
104
105
106
107
108
1086
109
110
111
112
113
114
115
116
118
119
120
121
122
123
124
125
127
129
130
131
132
133
136
139
140
141
142
143
144
145
146
147
148
149
150
1500
151
153
154
155
156
157
158
1580
159
1604
161
1612
1618
1643
1655
1656
167
1679
1680
1682
1689
169
1695
1701
1705
1710
1730
1732
1755
1759
1760
1772
1778
1779
1781
1796
1803
1805
1808
1812
1817
1831
1832
1840
1847
1852
1859
1862
1870
1876
1887
1891
1892
1903
1904
1905
1908
1915
1921
1922
1924
1928
1938
1942
1946
1947
1950
1952
1954
1962
1963
1968
1980
1981
1982
1988
1989
1991
1992
1996
20
2002
2006
2013
2017
2018
202
203
204
205
206
207
208
209
20s
210
211
212
213
214
215
216
217
218
219
220
221
222
223
224
226
227
228
229
230
232
233
235
236
237
238
240
243
244
245
246
247
248
249
250
251
252
256
257
258
259
260
261
262
264
265
268
269
270
272
273
274
275
276
277
278
279
280
282
283
284
285
286
287
288
289
290
291
292
294
295
296
297
298
299
3
300
302
303
304
305
306
307
308
309
310
312
313
314
316
317
318
319
320
321
324
325
326
327
328
329
331
332
334
335
336
337
338
339
34
340
341
343
344
345
35
352
354
355
357
36
37
370
375
38
380
381
385
39
390
395
40
400
4000
402
403
404
406
41
410
411
415
417
42
420
421
422
425
43
44
440
441
45
450
451
46
460
47
470
475
48
480
49
490
495
50
5000
501
505
51
512
52
520
521
53
530
54
540
55
550
555
56
560
57
570
58
580
59
590
60
6000
61
62
625
63
630
64
640
65
650
66
660
67
670
68
69
690
7
70
700
71
710
72
720
73
730
74
740
747
75
76
760
77
770
78
780
79
80
800
802
81
82
820
83
84
840
85
850
86
87
875
88
89
90
900
91
910
911
92
93
930
94
95
950
96
960
97
978
98
980
99
999
:
;
=
?
_
about
ad
alan
alberta
alice
alison
all
allison
alta
alyssa
amanda
amy
andrew
ann
anna
anthony
antonio
api
barry
bertha
billy
bobby
bookstore
brenda
bruce
built
carla
carlton
carol
caroline
cary
cassie
categories
cedric
check
cheryl
christ
christine
christopher
clarence
clay
colin
cookie
country
cynthia
daniel
dar
david
denise
dennis
details
diane
dolores
doris
dorothy
douglas
download
duane
earth
eddie
edward
elena
elizabeth
employee
eric
est
etc
exists
flashed
forgot
francis
francisco
frank
gail
gary
george
gerald
geraldine
get
global
grace
greet
greg
gregory
gwen
h
hazel
heather
helen
herbert
homer
howard
http
id
import
in
j
jackie
james
je
jean
jeff
jeffrey
jessica
jewel
joan
john
jon
jonathan
jose
joseph
joyce
judy
julius
karen
karin
kathleen
kelly
kenneth
kevin
kris
kristen
kristin
larry
laura
leslie
linda
log
lois
mabel
manuel
marcel
marco
margaret
mark
martin
marvin
mary
melvin
messages
michael
miguel
mildred
moi
monica
name
nancy
new
number
orders
os
page
pamela
pass
password
patricia
paul
philip
post
print
r
random
ray
raymond
region
richard
ricky
robert
running
ruth
sam
samuel
script
sean
select
shan
she
shen
sherry
ship
simon
states
static
stephen
steven
susan
suzanne
sw
system
tanya
tara
timothy
tom
toni
tony
tri
tx
ursula
user
val
veronica
via
victor
walter
wanda
warren
wilbur
william
willie
windows